solver_type L2R_LR_DUAL
nr_class 2
label 2 1
nr_feature 1000
bias 1
w
-2.691241e-04 
-1.254413e-03 
-4.961886e-04 
-6.393716e-05 
1.721232e-03 
-7.340833e-05 
5.912032e-04 
-5.961437e-04 
-4.098757e-04 
-1.206596e-03 
-8.682856e-04 
-5.152205e-05 
1.252765e-04 
3.219054e-04 
-7.316252e-05 
-1.658105e-03 
5.743564e-04 
-1.184544e-03 
-3.848056e-04 
1.197440e-03 
6.616283e-05 
1.822743e-04 
-6.081050e-04 
-1.349695e-04 
8.083310e-05 
-6.980328e-04 
-2.583484e-04 
4.840070e-04 
-6.287302e-04 
4.412107e-04 
-3.225945e-04 
-7.956193e-04 
-1.445683e-03 
1.104963e-03 
-1.811220e-03 
-9.516273e-04 
-5.808967e-04 
-1.412079e-03 
1.528753e-03 
6.859027e-04 
1.484231e-03 
1.809557e-03 
4.213605e-04 
-9.917849e-04 
-4.648939e-04 
-4.669675e-04 
8.479305e-04 
9.556895e-04 
5.333111e-04 
-6.989083e-04 
5.002987e-04 
-5.015508e-04 
-4.011714e-04 
1.026250e-03 
1.982840e-04 
7.107091e-04 
3.781093e-04 
1.628346e-04 
1.388257e-03 
-8.986304e-04 
-1.805187e-03 
1.124341e-03 
1.996248e-04 
-5.232845e-05 
5.168112e-04 
4.392161e-05 
3.191791e-04 
-1.264345e-03 
3.358092e-04 
-4.774681e-04 
1.076767e-03 
-1.157050e-03 
-1.057966e-03 
7.223143e-04 
-8.021988e-04 
1.653351e-03 
-1.978830e-04 
5.369225e-04 
9.556108e-04 
2.805964e-04 
-6.343816e-04 
-6.995069e-04 
-1.209192e-03 
-6.438791e-05 
-5.672545e-05 
3.395062e-04 
-3.779051e-04 
9.972672e-04 
1.032795e-03 
6.007539e-04 
1.862128e-03 
-1.071894e-03 
-2.754014e-04 
-3.503077e-04 
-7.707534e-05 
-4.296534e-04 
-5.968420e-05 
-1.271281e-03 
6.804837e-05 
-3.030698e-05 
4.055099e-04 
-2.263174e-04 
-6.021347e-04 
-2.298954e-04 
1.300793e-05 
-3.099993e-04 
-4.006606e-04 
1.119471e-03 
-1.052702e-03 
2.796739e-04 
1.549542e-03 
-3.555288e-04 
-6.752310e-05 
-6.729616e-04 
-1.247758e-03 
-3.850928e-04 
-2.559762e-04 
-5.901555e-04 
-9.120946e-04 
-8.645110e-04 
1.048444e-03 
-2.318304e-05 
2.381731e-04 
-4.737963e-04 
4.772631e-04 
-1.167399e-04 
2.904156e-04 
2.316156e-04 
-8.989161e-05 
-3.549597e-05 
-9.768149e-04 
-3.743212e-04 
8.937301e-04 
-1.105746e-03 
-1.492958e-04 
-9.583056e-04 
1.066264e-03 
6.043939e-04 
-1.573534e-03 
-9.008643e-04 
-3.934598e-04 
-1.318416e-03 
-4.957189e-04 
3.813322e-04 
-8.665866e-05 
-3.876409e-04 
1.367938e-03 
-8.687703e-04 
-3.479895e-05 
-1.112168e-03 
-4.192883e-04 
3.907558e-04 
-8.577497e-04 
-7.969334e-04 
-2.885159e-04 
8.636617e-04 
-1.276697e-03 
-1.326607e-03 
-1.310928e-03 
-1.812919e-04 
-9.700991e-04 
-1.468645e-03 
6.616380e-04 
1.587557e-04 
3.798112e-04 
-6.306727e-04 
-9.109171e-04 
3.917317e-04 
-1.637868e-04 
4.538187e-04 
1.246813e-03 
-8.043405e-04 
-8.341023e-04 
7.181518e-05 
-1.688808e-04 
1.165158e-04 
-1.892615e-03 
8.964393e-04 
-1.524923e-04 
-3.345157e-04 
1.774610e-03 
-3.470898e-04 
-8.529882e-05 
-6.668238e-04 
3.357241e-04 
7.376300e-06 
-1.860341e-04 
-8.839420e-04 
-1.062375e-04 
-7.120589e-04 
5.910130e-04 
-1.354523e-03 
-6.424018e-05 
-1.005654e-03 
-5.130755e-04 
1.930552e-03 
2.989598e-04 
-3.386396e-04 
-1.264699e-03 
-3.952768e-05 
1.618593e-04 
-3.939503e-05 
6.532398e-04 
7.597195e-04 
-7.151386e-04 
-9.416809e-04 
1.101666e-04 
-5.170649e-04 
-1.462816e-03 
-1.018955e-04 
-2.173889e-04 
-1.826718e-04 
1.302941e-03 
5.003169e-04 
4.751041e-04 
1.275412e-04 
-6.952167e-04 
-3.488384e-04 
-5.965541e-04 
5.444514e-04 
-6.018151e-04 
-8.163839e-04 
3.856339e-04 
-2.378270e-04 
-1.687280e-04 
8.366226e-04 
-1.565243e-04 
1.028756e-03 
-7.058561e-04 
-2.717763e-04 
-3.352592e-04 
1.204307e-03 
-7.610806e-04 
1.063089e-05 
-2.600909e-04 
7.617833e-04 
8.230046e-04 
1.055465e-03 
1.215200e-04 
-2.647006e-04 
-7.127600e-04 
8.328471e-04 
7.740622e-04 
8.569815e-04 
-1.607369e-03 
-3.364787e-04 
-4.551541e-04 
-1.416600e-04 
1.665796e-03 
4.315603e-05 
-6.919128e-04 
-9.667218e-04 
-7.463997e-04 
7.662674e-04 
-7.097691e-04 
-8.395941e-04 
-6.329866e-04 
-1.630326e-04 
-5.032585e-04 
-9.365685e-04 
-3.265880e-04 
2.669274e-04 
8.544447e-05 
4.147578e-04 
4.757202e-05 
1.138562e-03 
-2.539082e-05 
-1.866879e-03 
-5.010625e-04 
-9.076285e-04 
-1.179329e-03 
9.319078e-04 
-4.661032e-04 
-4.424489e-04 
-8.395818e-04 
4.761433e-04 
-2.133061e-04 
1.267812e-03 
1.699306e-04 
-1.488120e-03 
-8.514238e-04 
-7.940572e-04 
6.623226e-04 
-1.269625e-03 
-4.214960e-04 
-7.952972e-04 
-2.203015e-03 
-1.103471e-03 
4.948764e-05 
1.272984e-03 
3.461388e-04 
-4.986367e-04 
-9.321497e-04 
8.037555e-04 
-1.682267e-03 
8.066955e-04 
-9.892593e-04 
1.860321e-04 
1.027137e-04 
2.076249e-04 
-9.558268e-04 
-7.780661e-04 
-8.579102e-04 
4.516011e-04 
-6.196951e-04 
6.526464e-04 
5.348544e-04 
-3.952817e-04 
2.152389e-04 
-1.306610e-04 
-1.654216e-04 
-3.126679e-04 
6.296194e-04 
-2.599051e-04 
1.557286e-03 
-2.765452e-04 
7.875992e-04 
-7.938179e-04 
-6.881789e-04 
4.290291e-04 
-3.047282e-04 
-9.666299e-04 
-3.060884e-04 
-6.396882e-05 
1.746841e-05 
9.980412e-04 
1.542883e-03 
2.588861e-04 
4.006927e-04 
6.098332e-04 
-1.779416e-04 
-1.402655e-03 
8.212743e-04 
-2.579837e-04 
-5.279389e-05 
-9.213336e-04 
-5.708854e-04 
-5.638985e-04 
7.988313e-04 
-2.040513e-04 
5.576414e-04 
-3.134673e-04 
-3.576500e-04 
1.595086e-04 
-4.378627e-04 
-6.201264e-04 
1.343752e-03 
5.874058e-04 
-8.779831e-04 
-5.641431e-04 
-6.303847e-04 
6.060069e-05 
1.821956e-03 
3.900728e-04 
1.932619e-03 
5.447933e-04 
2.065051e-04 
-7.507050e-04 
-5.869208e-04 
-4.351364e-04 
-1.493745e-03 
-1.035398e-03 
-7.437975e-04 
-4.429351e-04 
-1.336545e-03 
6.700298e-04 
4.605459e-04 
1.901382e-04 
-4.078097e-04 
-8.829226e-04 
-8.948748e-04 
1.640770e-05 
9.102510e-04 
5.759990e-04 
-1.056338e-03 
-5.455107e-04 
6.477352e-04 
6.358428e-04 
-1.184924e-03 
-1.736172e-03 
-1.013323e-03 
-6.073736e-04 
-5.124833e-04 
-4.861624e-04 
-6.372523e-04 
-6.080357e-04 
-8.412390e-04 
-5.922855e-04 
4.231980e-04 
6.661394e-04 
7.691243e-05 
-2.504545e-04 
7.895196e-04 
3.087100e-04 
1.939169e-03 
3.137787e-04 
-1.405957e-04 
2.518874e-04 
1.203959e-04 
1.045512e-03 
-6.049937e-04 
-1.441272e-03 
7.921998e-04 
2.527645e-04 
5.936221e-04 
1.548232e-03 
1.487815e-04 
1.115496e-03 
-1.599353e-03 
9.006329e-05 
-5.860332e-04 
-1.041796e-03 
-6.605178e-04 
4.829899e-04 
-7.013711e-04 
-1.137556e-03 
-1.483039e-03 
3.569787e-04 
1.101947e-03 
-4.241766e-04 
-5.512246e-04 
-6.359210e-04 
5.950010e-04 
-3.575868e-04 
-8.440191e-04 
-1.172521e-03 
6.917939e-04 
2.914502e-04 
-5.013366e-04 
-5.479817e-05 
-8.834370e-04 
-4.840162e-04 
1.834465e-03 
8.811714e-04 
1.328917e-03 
7.752252e-04 
1.003630e-03 
-9.856084e-05 
-9.670583e-04 
-9.382408e-04 
-6.573933e-04 
-9.563010e-04 
2.087639e-04 
7.961370e-04 
3.022165e-04 
-2.742571e-04 
2.679208e-04 
8.054248e-04 
-5.034515e-04 
-1.527908e-03 
1.175450e-04 
-8.619480e-04 
-5.145417e-04 
3.810222e-04 
-1.390779e-04 
7.022334e-04 
-9.027743e-04 
-1.770129e-04 
6.368317e-04 
-1.593487e-03 
-6.858224e-04 
1.397632e-03 
-9.245490e-04 
-1.084700e-03 
1.289016e-04 
1.631026e-03 
-3.413642e-04 
-1.086415e-03 
-1.576599e-04 
-1.113965e-03 
-4.603453e-04 
-1.368515e-03 
4.041228e-04 
-4.153824e-04 
8.784897e-04 
-8.615350e-05 
-3.877129e-04 
-8.659713e-04 
8.275028e-04 
-8.125560e-04 
4.871132e-04 
3.815935e-04 
5.380338e-04 
2.722571e-04 
2.535190e-05 
7.765610e-04 
-3.595655e-04 
2.522412e-04 
5.543841e-05 
6.573462e-04 
8.626818e-04 
4.473742e-04 
-1.060873e-03 
2.351806e-05 
1.271584e-03 
-9.266996e-04 
-1.124284e-03 
-8.908770e-04 
1.766898e-04 
-3.163680e-04 
-1.554213e-03 
-1.561721e-03 
5.923247e-04 
-4.383161e-04 
-4.603702e-05 
3.661768e-04 
-4.296330e-04 
8.158443e-04 
-5.191576e-04 
6.464553e-04 
-1.404568e-04 
-5.607630e-05 
-1.189552e-03 
2.527419e-04 
-3.314316e-04 
1.490330e-04 
1.043725e-03 
-1.620802e-03 
7.437400e-04 
-4.416467e-04 
2.055361e-04 
2.284158e-06 
-1.503678e-03 
-6.807352e-04 
-1.325420e-05 
-1.818242e-04 
-2.414872e-04 
-5.765921e-04 
-1.592297e-04 
-4.580794e-04 
5.302398e-04 
-1.834760e-03 
1.605256e-03 
-6.276327e-04 
-6.334868e-04 
-5.308810e-04 
-2.724755e-04 
-1.326257e-04 
-1.111341e-03 
-1.566480e-03 
-2.058485e-04 
-8.326807e-04 
-4.466796e-04 
3.240567e-04 
-8.491114e-04 
2.451507e-04 
2.273418e-04 
-2.506975e-04 
-1.778946e-04 
1.880684e-04 
-4.060496e-04 
5.689309e-04 
7.909601e-04 
-1.360253e-03 
-1.647780e-03 
2.728301e-05 
-1.559902e-03 
1.635788e-04 
-9.802286e-04 
9.396827e-04 
1.295351e-03 
-1.555402e-03 
-1.319996e-03 
7.899296e-04 
-1.568646e-04 
-1.175516e-03 
-1.477282e-03 
-5.820205e-04 
-6.393998e-04 
-8.851985e-04 
9.275416e-04 
-6.318990e-04 
-5.497885e-04 
-5.114041e-05 
-1.722070e-04 
-9.510322e-04 
-1.061433e-03 
-5.972296e-04 
-1.245667e-03 
1.358886e-04 
-5.366618e-04 
-7.486058e-04 
2.811580e-04 
-8.767165e-04 
7.768256e-04 
-1.052859e-03 
-1.396625e-03 
-8.915786e-04 
-7.176495e-04 
5.146906e-04 
-7.072063e-04 
3.670222e-04 
3.011873e-05 
5.377960e-04 
-1.334510e-03 
-7.302936e-04 
1.888186e-05 
5.001996e-04 
9.163285e-04 
-2.306297e-04 
-9.391735e-04 
-1.189364e-03 
1.351404e-03 
-2.767540e-04 
8.377835e-04 
-4.028050e-04 
-6.083188e-04 
3.132451e-04 
-1.478065e-03 
1.988048e-04 
-1.579334e-03 
3.786307e-04 
-1.155730e-04 
1.499622e-04 
-1.251889e-03 
-9.656219e-04 
2.107418e-04 
2.217369e-04 
-1.025500e-03 
-1.059630e-03 
3.761278e-04 
-1.291376e-03 
-9.451222e-04 
-7.884966e-04 
-4.894573e-04 
-4.950076e-04 
-1.350852e-03 
-5.686124e-04 
3.705075e-04 
4.347529e-04 
2.322453e-03 
-5.414336e-06 
-4.919204e-04 
-5.651977e-04 
-6.625647e-05 
2.186272e-04 
9.997673e-05 
-2.246781e-03 
-6.540726e-04 
-6.792073e-04 
-4.049821e-04 
1.301789e-03 
-9.365448e-04 
8.047105e-05 
-5.396586e-05 
-1.706061e-04 
-1.576132e-03 
-6.405893e-04 
4.381280e-04 
-6.723730e-04 
-8.517589e-05 
-5.445009e-04 
-4.102838e-04 
6.690043e-04 
-9.736331e-04 
-4.366533e-04 
-6.874148e-04 
1.891584e-04 
1.125634e-04 
3.090261e-04 
-2.945604e-04 
-6.794078e-04 
3.971683e-04 
-1.272013e-03 
-2.180567e-04 
1.069867e-04 
3.894681e-06 
-8.160579e-04 
1.073490e-03 
-3.982406e-04 
-1.790253e-04 
5.437000e-04 
-1.415836e-03 
1.768571e-04 
8.010611e-04 
-3.856548e-04 
-7.397192e-04 
8.591113e-04 
-7.314047e-04 
-1.038611e-03 
-3.655278e-04 
2.801678e-04 
-2.083121e-05 
6.210572e-04 
8.272964e-04 
-3.381013e-04 
-1.025166e-03 
3.532809e-04 
1.038579e-03 
3.460546e-04 
2.410676e-04 
-3.924640e-04 
-1.638491e-03 
-1.366925e-03 
3.729269e-04 
-2.930183e-04 
4.362370e-05 
4.458443e-04 
2.543991e-04 
-3.687404e-04 
-1.376380e-04 
7.498710e-04 
1.801943e-04 
-1.709125e-04 
3.061570e-05 
-1.661815e-04 
1.813264e-03 
-5.583501e-04 
8.047065e-04 
2.086305e-04 
-9.332719e-04 
-5.380827e-04 
5.547044e-04 
-1.160171e-04 
2.766907e-04 
-7.140219e-04 
1.272536e-03 
-1.200278e-03 
7.443078e-04 
-5.348306e-04 
1.412540e-03 
-1.508974e-03 
1.720045e-04 
-1.253876e-03 
-1.761797e-03 
-9.296313e-04 
7.003949e-04 
-1.743709e-03 
-1.128196e-03 
6.191195e-04 
-2.638083e-04 
-1.371580e-03 
-6.129332e-04 
1.209274e-03 
-5.281503e-04 
-6.908921e-04 
-1.494890e-03 
-6.940264e-04 
6.961454e-04 
5.104518e-04 
2.279789e-04 
8.407144e-04 
5.968145e-04 
-2.223787e-04 
-2.704648e-04 
-9.580738e-04 
1.126893e-03 
-2.940695e-04 
3.389210e-04 
4.897766e-05 
-8.749791e-04 
8.933538e-04 
2.325526e-04 
-5.684866e-05 
-5.688607e-04 
5.588294e-04 
-2.862087e-04 
-5.694139e-04 
3.469223e-04 
3.178355e-04 
2.800211e-04 
-1.664291e-04 
3.575526e-04 
-1.489764e-03 
-3.932917e-04 
-2.845570e-04 
-1.829910e-04 
8.776247e-04 
1.231124e-03 
3.749807e-04 
1.316288e-03 
5.475551e-04 
7.155434e-04 
-3.898151e-04 
2.819594e-05 
2.545415e-05 
-7.837894e-04 
-4.082407e-04 
-1.403284e-03 
-8.838063e-04 
1.033354e-04 
-7.424920e-04 
1.538472e-03 
-1.519398e-03 
2.590974e-04 
4.377799e-04 
2.294111e-04 
6.906857e-04 
3.467885e-04 
-9.582833e-04 
-3.692164e-04 
4.107242e-04 
-5.064292e-04 
-8.581826e-04 
-1.329118e-03 
-1.439946e-03 
-1.609987e-03 
-1.479772e-03 
-8.022068e-04 
-3.657087e-04 
-4.026156e-04 
-1.762365e-05 
1.276437e-03 
1.478997e-03 
7.948684e-05 
1.099997e-03 
1.159841e-04 
2.362972e-04 
3.182205e-04 
1.787487e-05 
-1.600959e-03 
-8.707441e-05 
-5.988690e-04 
-6.279187e-04 
-9.906947e-05 
-2.290555e-04 
2.190448e-04 
-6.860144e-04 
-3.268987e-04 
6.333769e-04 
-7.029094e-04 
-5.532901e-04 
1.106215e-03 
-5.329687e-04 
-4.537601e-04 
1.246909e-04 
-7.833762e-04 
-7.402852e-04 
1.427326e-03 
-4.911707e-04 
2.225740e-04 
3.923821e-04 
-3.927950e-04 
5.728174e-04 
-8.829982e-05 
-8.775090e-04 
9.150002e-06 
-5.556663e-04 
-4.665769e-04 
1.001492e-05 
-3.179528e-04 
-5.976971e-04 
-2.836999e-04 
-8.339388e-04 
-3.172253e-05 
-1.016443e-03 
1.291179e-03 
8.080905e-04 
1.576521e-04 
-1.074668e-03 
8.435505e-04 
-7.653629e-04 
-4.050838e-05 
1.083718e-03 
-1.025693e-03 
-3.488015e-04 
-2.051438e-04 
-5.965042e-04 
-9.895771e-04 
-1.415173e-04 
-2.161470e-04 
1.211022e-04 
2.904858e-04 
7.374471e-04 
-7.923000e-05 
2.521626e-05 
-1.760185e-04 
-1.562408e-05 
-5.793824e-04 
-5.656108e-04 
-3.161043e-04 
-7.584677e-04 
6.195694e-05 
-7.107104e-04 
5.321657e-04 
-1.581077e-03 
-5.960148e-04 
5.784621e-04 
8.580538e-04 
1.154627e-03 
-8.850332e-04 
-1.417741e-03 
-1.487937e-03 
-2.280046e-04 
-8.491045e-06 
-6.177847e-04 
1.084178e-03 
9.951537e-04 
9.724786e-06 
-9.652875e-04 
-8.442398e-04 
9.327264e-05 
7.368015e-04 
-3.339925e-04 
-1.648380e-03 
-5.591607e-04 
2.390089e-04 
9.195069e-04 
-3.702820e-04 
1.161318e-03 
-1.020029e-04 
-2.839103e-04 
3.436230e-04 
-3.597155e-04 
-1.613848e-03 
2.185903e-04 
7.840679e-04 
4.895423e-04 
3.612531e-04 
1.851352e-05 
-1.052442e-03 
-1.224367e-06 
-1.340127e-03 
-7.433700e-04 
-2.435934e-04 
-5.949838e-04 
-1.401815e-04 
-6.057056e-04 
-8.387420e-04 
8.188497e-04 
-7.723613e-04 
-3.669498e-04 
2.959415e-04 
5.150487e-04 
-1.458786e-03 
7.149584e-04 
3.794808e-04 
3.065355e-04 
3.425799e-05 
-7.350857e-04 
-4.221349e-04 
-4.310524e-05 
-5.879718e-04 
-2.456347e-04 
-1.703930e-03 
-3.090699e-04 
-5.067744e-04 
8.673471e-04 
6.628505e-04 
-1.048410e-03 
-9.949475e-05 
-7.532170e-04 
1.689651e-04 
-4.681490e-04 
-7.116214e-04 
6.527101e-04 
4.409721e-05 
-4.927731e-04 
1.648815e-03 
5.025924e-04 
6.637937e-06 
6.878690e-04 
-1.069546e-03 
-9.265445e-05 
-1.715768e-04 
-1.307411e-03 
1.663643e-04 
-1.087168e-03 
3.129392e-04 
5.717339e-04 
-1.106770e-03 
-1.035043e-04 
-1.048769e-03 
-3.319752e-04 
6.165151e-04 
5.400776e-04 
-1.485332e-04 
-9.413487e-04 
-8.341857e-04 
-5.735301e-04 
6.485834e-04 
-1.395871e-03 
-1.083044e-03 
6.439902e-04 
-1.087718e-03 
-1.444938e-03 
-3.760594e-04 
-2.976443e-04 
-6.746048e-04 
3.541407e-04 
-1.730386e-04 
-1.135552e-03 
2.803183e-04 
2.203376e-04 
-1.165181e-03 
-9.298963e-05 
-2.643925e-04 
-1.440654e-03 
-1.883776e-03 
-1.174120e-03 
2.785866e-04 
3.125763e-04 
7.402661e-04 
-6.271292e-04 
2.000403e-04 
-4.734457e-04 
1.104889e-04 
2.632120e-04 
-4.642336e-04 
-6.539992e-04 
-5.164142e-03 
