solver_type L2R_LR_DUAL
nr_class 3
label 1 2 3
nr_feature 1000
bias 1
w
1.302279e-03 -2.611900e-05 1.211002e-03 
-3.243148e-04 1.909214e-03 -2.295183e-05 
-1.221300e-03 3.301719e-03 -9.150403e-04 
-1.722041e-04 -1.160272e-03 9.327377e-05 
-1.814610e-03 4.078906e-04 2.247793e-03 
-1.702817e-03 1.321049e-03 -8.085031e-04 
-4.286132e-03 -1.615500e-03 2.745226e-04 
1.909047e-03 1.728528e-03 -5.677677e-04 
-3.401858e-03 -3.030227e-03 -7.698869e-04 
1.758765e-04 -5.184591e-04 -3.872022e-05 
1.831611e-03 1.542231e-04 1.199380e-04 
8.282682e-04 -4.426021e-04 9.362749e-05 
-2.496280e-04 -8.849436e-04 3.238647e-03 
-3.078058e-03 2.938459e-04 1.292582e-03 
-1.284243e-03 -2.087321e-03 1.401165e-03 
1.031178e-03 4.950211e-04 -1.527497e-03 
1.083947e-03 1.805877e-03 -3.111651e-03 
-1.167218e-03 8.093792e-04 -1.741364e-03 
2.766490e-03 7.661996e-04 -6.925162e-04 
-7.792066e-04 1.751313e-03 5.516369e-04 
-1.233532e-03 -7.146646e-04 1.608792e-03 
3.170501e-04 -1.034822e-03 -7.080541e-04 
2.035167e-03 -1.767837e-03 -1.434325e-03 
2.962850e-04 2.389074e-03 1.087722e-03 
7.199921e-04 -3.021446e-03 -3.072718e-03 
-5.962797e-03 -3.442319e-03 3.944628e-04 
-1.940422e-03 -6.624263e-04 -1.137396e-03 
5.415997e-04 -6.404084e-04 -2.556049e-03 
-3.617019e-03 -7.020438e-04 2.526740e-03 
5.619834e-04 -4.495889e-04 -7.301166e-04 
-1.978044e-03 -7.036875e-04 -3.968390e-04 
-3.240023e-04 1.168925e-03 2.478740e-03 
7.497582e-04 1.979574e-03 8.699165e-04 
2.055966e-04 3.324783e-04 9.192350e-04 
1.266404e-04 3.011848e-04 4.989897e-04 
-1.930225e-03 1.389702e-03 -1.164077e-03 
-2.477966e-03 -3.499407e-03 1.449169e-03 
2.936832e-04 -1.174831e-03 6.569632e-04 
-9.985186e-04 2.067687e-03 -2.063532e-04 
6.695537e-04 1.157760e-03 1.048780e-03 
-4.999933e-04 -4.140816e-04 -2.171837e-05 
-2.649387e-03 -8.918691e-04 5.078949e-04 
7.239425e-04 -5.209579e-04 1.960526e-03 
1.974261e-03 2.073124e-04 -1.005165e-03 
2.849636e-03 5.296713e-04 -1.861740e-03 
-1.981191e-03 1.000864e-03 1.484548e-04 
4.535937e-05 2.081680e-03 1.744078e-03 
3.339914e-03 -1.259109e-04 -2.668090e-04 
7.116904e-04 -9.936913e-04 1.262245e-03 
-1.150536e-03 8.378595e-04 -1.154891e-03 
-6.782589e-04 -1.189212e-03 5.564407e-04 
-3.133370e-03 -4.225688e-04 2.759778e-03 
-2.424840e-03 -1.292311e-03 3.942489e-03 
3.368017e-05 2.292737e-04 9.188605e-04 
-1.563120e-03 -3.171034e-03 -1.981437e-03 
-2.330172e-03 -1.996993e-03 -6.405102e-04 
-2.653497e-03 -5.246125e-05 2.237211e-03 
-9.103219e-04 -2.714887e-03 -2.239564e-04 
-1.822200e-03 -2.708169e-05 1.743230e-03 
-1.841761e-03 9.608396e-04 2.856772e-04 
-3.212159e-04 -1.015539e-03 -9.167709e-04 
-5.594504e-03 2.660014e-03 -1.747625e-03 
-1.331663e-03 -2.431336e-03 1.281847e-03 
-7.137834e-04 1.738700e-03 4.319805e-04 
-5.875813e-04 5.772950e-04 2.045279e-04 
-1.966938e-03 4.147155e-04 -2.114487e-03 
-3.247824e-03 -4.333862e-04 -3.962124e-04 
-2.694492e-03 5.229342e-04 9.075202e-04 
1.921375e-03 1.560631e-03 -1.612688e-03 
9.423389e-04 -3.790311e-03 5.916851e-04 
1.305938e-03 2.413599e-04 -9.990436e-05 
1.012193e-03 1.510950e-03 -5.691961e-04 
-4.823463e-04 2.903847e-04 9.993721e-04 
1.119361e-03 5.943874e-04 -4.397927e-04 
-2.264153e-04 2.412410e-04 1.176667e-03 
5.695972e-04 3.317617e-03 3.654646e-03 
-8.023874e-04 -1.849048e-04 1.611575e-03 
-5.537719e-05 -2.681121e-03 1.070742e-03 
9.478228e-04 2.353765e-04 7.069037e-04 
-7.703538e-04 -1.481389e-03 1.376208e-04 
-1.448375e-03 -1.532913e-03 4.360177e-03 
-3.307072e-04 -4.840234e-04 3.650126e-04 
-1.235586e-03 -1.449556e-03 -1.106514e-03 
-3.995337e-04 3.853379e-04 -5.964581e-04 
1.952821e-03 1.956283e-03 3.408011e-04 
-2.123829e-03 -1.464997e-03 1.199231e-04 
-2.726207e-04 1.297841e-03 3.583291e-04 
2.178978e-03 2.926401e-03 7.762893e-04 
8.749239e-04 1.224868e-03 3.196216e-03 
1.056754e-03 2.646187e-04 -1.337999e-03 
-5.156716e-04 9.600741e-04 -2.958555e-04 
-8.970052e-04 2.385821e-03 -3.151243e-04 
3.312952e-04 1.418954e-03 -8.906609e-04 
-5.576403e-04 -1.271410e-03 1.094959e-03 
3.466341e-03 1.764720e-03 6.221259e-05 
-8.085513e-04 5.760467e-04 1.391043e-03 
1.911448e-03 8.634771e-04 3.040764e-03 
7.170729e-04 7.925484e-04 -2.313803e-04 
4.496906e-04 3.649128e-04 -1.223011e-03 
1.835570e-03 -1.417657e-04 -5.393393e-04 
1.208249e-03 -1.139967e-03 7.950816e-04 
6.372865e-04 1.030054e-03 -1.568268e-03 
-2.181122e-04 -2.260748e-03 -1.374773e-05 
-1.138103e-03 -8.631207e-04 1.509950e-03 
-1.798401e-04 4.720642e-04 -4.020607e-04 
1.972073e-03 1.109558e-03 2.717710e-05 
-2.281254e-03 5.679580e-04 6.467047e-04 
-3.673220e-03 7.623001e-04 2.259676e-03 
7.419136e-04 3.504954e-04 1.015001e-04 
-1.067398e-04 1.087903e-03 -6.301171e-04 
-2.165007e-03 1.883090e-04 5.103875e-03 
2.272259e-03 2.876556e-03 -1.119066e-03 
-6.158462e-04 3.331874e-03 -3.050540e-05 
-1.691584e-03 -1.576139e-05 8.047046e-04 
5.937026e-04 -1.029740e-03 2.037359e-03 
-2.182301e-03 1.111419e-03 -9.526645e-04 
2.316591e-04 -5.730564e-04 6.205255e-04 
7.902320e-04 8.673751e-04 -8.180227e-04 
-9.563707e-04 -1.980034e-03 3.725048e-04 
-2.823001e-04 3.875454e-03 -1.602025e-03 
-2.531001e-03 -2.670212e-03 6.453353e-04 
-1.059322e-03 2.829724e-03 -1.163272e-03 
-3.484207e-03 -1.448686e-03 -1.938471e-04 
6.497532e-04 -3.584713e-04 -1.283106e-03 
1.773461e-04 -5.285710e-04 -8.253721e-04 
1.779652e-04 -9.339290e-04 -3.462149e-04 
3.049850e-03 6.580141e-04 5.155604e-04 
1.346603e-03 6.530472e-04 5.498377e-05 
1.418059e-03 6.275704e-04 -9.155288e-04 
3.101106e-03 -7.665120e-04 -2.643579e-03 
3.748812e-04 1.456508e-03 4.897843e-05 
-1.703072e-04 -9.765584e-04 1.319991e-03 
-1.743179e-03 -2.003071e-04 1.241599e-03 
-2.578881e-03 1.610736e-03 7.087745e-04 
4.704788e-04 -3.663083e-03 -1.097100e-03 
8.378134e-04 2.152904e-03 -1.159113e-04 
2.937000e-04 1.183973e-03 -3.539138e-04 
2.950495e-04 -7.630657e-04 1.404712e-03 
-1.946086e-05 1.489105e-03 1.350308e-04 
-5.129791e-04 -8.076592e-04 1.725401e-05 
6.622947e-04 1.920759e-03 1.218696e-03 
1.367175e-03 -1.238269e-03 -1.688932e-03 
4.699575e-04 1.514371e-03 2.811832e-04 
-8.397274e-04 -2.067389e-03 -9.177031e-04 
3.127442e-05 -8.211799e-04 -1.095001e-03 
-1.084178e-03 -1.750770e-03 -8.805271e-04 
1.976572e-03 -6.092450e-04 -2.906780e-03 
-1.513256e-03 -1.881217e-03 -1.798861e-04 
9.367001e-04 1.366299e-03 -5.603432e-04 
7.705395e-04 1.520209e-03 1.369025e-03 
-9.341080e-04 -5.139531e-04 1.531841e-03 
2.231972e-03 8.986976e-04 -6.937580e-04 
2.132152e-03 -1.142118e-04 -7.714029e-04 
-8.733728e-04 -1.484590e-03 1.234874e-04 
7.967361e-04 -1.539004e-03 1.230518e-04 
-1.569751e-03 -1.532387e-03 -2.146946e-04 
-7.047502e-04 3.099092e-04 -9.646570e-04 
-9.403548e-05 1.397461e-03 -2.780240e-04 
8.376062e-04 1.313435e-03 1.783721e-03 
-2.073526e-03 4.585783e-04 2.984268e-03 
-5.776134e-04 1.847558e-04 6.706260e-04 
-2.222601e-03 -5.836779e-04 -2.433843e-04 
9.368988e-04 -9.794572e-04 1.161630e-03 
8.781965e-05 1.621141e-03 1.287275e-03 
-1.753306e-03 -4.609884e-03 1.250889e-03 
1.345549e-03 3.091753e-03 -1.556568e-03 
3.865911e-04 2.024945e-03 -6.319535e-04 
2.387236e-03 -1.312899e-03 2.905047e-03 
-6.203086e-04 1.095026e-03 1.293077e-03 
-3.773468e-04 1.555383e-03 -1.440576e-03 
2.047130e-03 1.782207e-03 -1.528630e-04 
-8.727826e-04 -1.430861e-03 -3.730949e-04 
-2.766552e-05 -1.285986e-03 1.338758e-03 
-1.542373e-04 6.709235e-04 1.427912e-03 
1.399707e-03 -6.413630e-04 -1.508024e-03 
-1.950520e-03 -1.495826e-03 1.648429e-06 
6.070383e-04 1.872060e-03 -5.734282e-04 
1.085316e-03 -6.941844e-04 -3.626144e-03 
-2.177481e-03 -5.531778e-04 2.477265e-04 
2.869492e-03 3.882832e-03 -6.991082e-04 
1.236324e-04 -1.095120e-03 -7.907679e-04 
2.807450e-04 1.729344e-03 4.426258e-04 
2.185541e-03 -2.730407e-04 -2.024344e-03 
3.041708e-03 8.050540e-04 -2.936131e-03 
-1.841962e-03 3.570561e-04 4.443913e-04 
-7.146431e-05 4.693182e-05 3.440110e-04 
4.566682e-03 -1.064041e-04 -9.169829e-04 
5.458778e-04 9.673857e-04 -1.794515e-03 
-2.893128e-03 1.740636e-03 6.527901e-04 
-1.717159e-03 -3.929977e-04 -8.742098e-04 
-1.740924e-05 -4.360455e-04 9.100853e-04 
-5.901068e-04 -1.562838e-03 1.627108e-03 
7.071379e-05 -2.803399e-03 2.794779e-03 
1.596667e-03 -2.062232e-04 -1.239648e-04 
3.097497e-04 -2.102524e-03 -7.373229e-04 
6.925908e-04 6.305817e-04 2.266302e-05 
1.468703e-03 -7.180193e-04 -6.264135e-04 
-7.095593e-04 2.438093e-03 -5.613992e-04 
2.308116e-03 -2.695337e-04 -9.688788e-04 
-5.008560e-04 -1.290290e-03 6.371186e-04 
4.100129e-04 3.546984e-03 -1.181808e-03 
1.094292e-03 3.559417e-04 -1.204407e-03 
3.914105e-04 -1.153515e-03 1.004058e-03 
-2.270076e-03 -4.861460e-03 -4.518446e-03 
1.685667e-03 -1.510510e-03 -1.449220e-03 
5.589994e-04 -6.188237e-05 -3.417478e-04 
2.628007e-03 -2.070373e-03 -2.121149e-03 
-1.003498e-03 -3.865254e-04 -9.242714e-04 
1.000310e-03 6.231234e-04 -4.625296e-04 
1.129147e-03 6.413403e-04 -1.833921e-03 
-2.578393e-03 -1.365364e-03 7.938263e-04 
2.368832e-03 1.904783e-03 -1.993391e-03 
7.816287e-05 -1.904219e-03 -8.589931e-04 
7.387015e-04 1.968410e-03 -1.901446e-03 
-6.138165e-04 1.246010e-03 4.578390e-04 
1.542274e-03 -7.959232e-04 6.731787e-04 
2.276127e-04 -5.960105e-04 1.288745e-03 
-2.789668e-03 -5.542634e-04 -4.308598e-04 
-1.517219e-03 -1.955882e-04 7.981980e-04 
4.644663e-04 8.594568e-04 -1.678906e-03 
-3.235950e-03 -3.760545e-04 -7.460532e-04 
-6.327904e-04 -9.172958e-04 -1.333879e-03 
1.619904e-03 -2.125716e-03 -3.060051e-03 
1.920322e-03 -8.758807e-04 3.042821e-04 
5.614238e-04 7.354535e-04 -5.085815e-04 
2.800351e-03 1.292961e-04 -9.508607e-04 
-1.224135e-03 -3.095325e-04 2.223668e-04 
-3.057519e-03 -2.887344e-04 -4.638611e-05 
-1.818889e-03 -9.040820e-04 -5.529956e-04 
2.513256e-04 1.714669e-04 -8.376860e-04 
-1.591763e-03 3.818390e-04 2.421089e-04 
-3.692615e-04 1.002037e-03 -2.579701e-04 
2.301994e-03 1.558832e-03 2.499298e-03 
1.412333e-03 8.044603e-04 -2.850971e-03 
-1.915479e-05 -4.073452e-04 -1.238203e-03 
-1.926249e-03 -1.674359e-03 -3.153775e-04 
2.078324e-03 3.651205e-04 1.161308e-03 
1.925457e-04 1.614565e-03 7.346336e-04 
-3.347062e-03 -1.451095e-03 -2.325349e-03 
-4.277185e-04 -3.773924e-04 -2.264224e-04 
1.249186e-04 8.165076e-05 -2.242624e-03 
9.099585e-04 2.534035e-03 3.585440e-04 
-2.404412e-03 -3.407751e-04 8.358739e-05 
-3.484449e-03 -1.420477e-03 4.414680e-04 
-8.524369e-04 8.104887e-04 -9.658757e-04 
9.702511e-05 1.449676e-03 -6.505983e-04 
-8.687624e-04 -1.458216e-03 6.861503e-04 
1.480729e-04 -1.170989e-03 1.378715e-03 
-3.089191e-04 -7.802484e-04 1.322271e-03 
8.951160e-04 -1.918465e-03 9.324211e-04 
-1.356030e-03 1.338680e-03 -1.661382e-03 
-3.646846e-04 -5.199787e-04 -7.973728e-04 
-1.261031e-04 7.165401e-04 1.435451e-04 
3.544916e-04 9.002442e-04 1.338032e-03 
2.611732e-04 -4.537346e-04 6.603302e-04 
-2.686173e-04 8.130411e-04 1.097097e-03 
1.382692e-03 8.634077e-04 1.581433e-04 
-1.248051e-03 6.671639e-04 2.265854e-03 
3.140001e-04 -1.990174e-03 2.212075e-03 
-8.714943e-04 -1.722856e-04 9.677825e-04 
-8.688601e-04 -5.636163e-04 1.700261e-03 
-2.060933e-03 3.884628e-04 7.190364e-04 
4.951888e-03 1.290995e-03 -3.803380e-04 
-3.078312e-04 -2.185431e-03 8.226520e-04 
-9.410279e-04 8.413821e-05 2.395260e-03 
2.796006e-04 2.045316e-03 -7.392208e-05 
2.617788e-03 7.231813e-04 2.290653e-03 
4.486320e-04 1.928812e-03 -1.242397e-03 
5.579210e-04 2.171405e-03 9.493788e-04 
1.627606e-03 1.646426e-03 6.036102e-04 
-1.579836e-03 -2.692815e-03 -3.835435e-04 
1.104346e-03 -6.974441e-04 -2.048208e-04 
-1.361096e-03 1.263545e-03 -2.473741e-04 
1.044067e-03 -9.152019e-04 -2.161578e-03 
-6.511207e-05 2.255080e-04 2.810068e-04 
6.336165e-04 4.286651e-05 1.447322e-03 
1.243474e-03 -5.722662e-04 -1.535155e-03 
1.871830e-03 2.204775e-03 1.247334e-03 
1.650375e-03 -1.054824e-03 3.539253e-04 
2.448335e-04 -1.035239e-03 9.650069e-04 
2.250641e-03 1.502908e-03 -1.172908e-03 
-9.228750e-04 -2.423722e-03 8.215345e-04 
-4.758968e-04 1.255588e-03 -5.720099e-04 
2.432683e-04 -1.672919e-03 -4.446756e-04 
-4.879252e-04 1.952960e-04 -1.011142e-04 
2.360272e-03 -1.181895e-04 -2.593464e-04 
-3.581760e-03 -2.255271e-03 7.152396e-04 
1.747363e-03 1.929048e-03 -7.082784e-04 
2.334188e-03 2.734998e-04 4.244473e-04 
-1.071498e-03 8.203798e-04 1.268285e-03 
-5.231504e-04 -2.349968e-03 -2.586670e-03 
3.713282e-03 1.009196e-03 -1.454719e-03 
-2.638714e-03 -2.469136e-03 -5.850711e-04 
-2.158525e-03 1.118360e-04 8.540376e-05 
1.060311e-03 -3.295268e-04 4.742147e-05 
1.840520e-05 1.507361e-04 -1.029911e-03 
2.845727e-03 1.291289e-03 5.691623e-04 
-3.455971e-03 -2.310505e-03 1.152674e-03 
5.703177e-04 2.234049e-03 9.329343e-04 
-9.804855e-04 5.922516e-04 2.961206e-03 
-1.537962e-03 -1.591866e-03 -2.202852e-03 
-1.768571e-04 -5.935516e-05 5.591713e-04 
-1.284173e-03 -9.518276e-05 2.863443e-03 
-1.127479e-03 3.161731e-04 3.003565e-04 
3.908115e-03 -8.840421e-04 1.738190e-04 
4.294849e-04 -2.443239e-04 -1.051860e-03 
-2.425179e-03 2.691429e-04 -8.658287e-04 
-1.856998e-03 -1.251642e-05 -2.514180e-04 
1.094292e-03 1.543592e-03 5.798553e-04 
8.468719e-05 6.292958e-04 1.608464e-04 
1.117938e-04 2.939995e-05 -1.137341e-03 
1.151529e-03 -1.833108e-04 1.804000e-03 
1.102252e-03 2.690342e-03 9.051652e-07 
1.645249e-04 2.575544e-03 -5.327742e-04 
3.661082e-03 8.621937e-04 -1.329127e-03 
1.128004e-03 -2.506350e-03 2.697626e-04 
-4.693253e-05 -2.124491e-03 1.438047e-03 
1.098816e-03 1.766688e-03 3.518510e-03 
1.077498e-04 -5.374932e-04 6.398773e-04 
-1.565547e-03 -7.271352e-04 -9.768409e-04 
2.944009e-04 3.183557e-03 1.309757e-03 
-2.620688e-03 -1.215216e-03 -4.727153e-04 
8.330681e-04 2.332414e-03 -3.947372e-03 
-2.115737e-04 -1.725444e-03 -2.388751e-03 
1.363950e-03 2.259169e-03 2.274393e-03 
-1.081834e-03 -4.350790e-04 2.179527e-04 
3.922049e-04 1.476008e-03 -2.992137e-04 
-9.552798e-04 -4.294238e-04 3.617877e-04 
-6.429879e-05 -3.894794e-04 -2.231703e-03 
3.002782e-03 1.852019e-03 1.115382e-03 
1.409750e-03 7.587845e-04 1.836942e-03 
1.807541e-03 -2.010059e-03 -2.362344e-03 
-3.913574e-03 -3.196468e-03 -4.020387e-03 
2.531590e-04 2.136766e-04 1.295050e-03 
8.139870e-04 7.860580e-04 -3.795048e-03 
-1.745674e-03 -1.567944e-04 2.782412e-03 
1.641939e-03 1.612014e-03 -9.358658e-04 
1.477310e-03 1.913236e-03 -1.930826e-04 
1.819714e-04 1.080034e-03 1.341969e-03 
-6.847724e-04 1.648180e-03 -1.731948e-03 
-1.421514e-03 1.147138e-04 4.293766e-03 
-2.705040e-04 2.035424e-03 -1.660539e-03 
3.351719e-04 7.689765e-04 -1.559923e-03 
1.220327e-03 1.820622e-03 -1.830306e-03 
7.272514e-04 -1.267018e-03 1.266247e-03 
5.354285e-04 1.889417e-04 -2.501833e-03 
-1.098624e-03 -2.622441e-03 3.514702e-03 
1.077616e-03 2.956532e-04 -2.058860e-03 
8.806148e-04 9.780662e-04 -3.798214e-04 
5.900549e-04 -1.548900e-03 -2.545795e-03 
7.334217e-04 6.522514e-04 2.088892e-03 
-1.791430e-04 1.109535e-03 -1.996710e-04 
-2.822955e-03 1.616306e-03 2.852098e-04 
1.949911e-03 1.983884e-03 5.309239e-04 
3.392193e-03 2.296341e-04 -2.693644e-03 
1.286642e-04 2.034007e-04 6.356237e-04 
3.026486e-03 1.965107e-03 -1.581362e-03 
-4.454400e-04 -1.587400e-03 -2.904910e-03 
9.125602e-04 1.231313e-03 4.269437e-04 
1.384147e-03 9.030306e-04 -1.308657e-03 
-1.083567e-03 -8.023564e-04 4.897021e-04 
1.110744e-03 -1.567093e-03 -1.377492e-03 
-4.539793e-04 -2.377577e-03 2.729694e-04 
-2.042903e-03 -1.856460e-04 1.078643e-03 
7.447538e-04 -4.991971e-05 -2.278942e-04 
-1.626754e-04 8.451476e-04 1.435282e-03 
8.948535e-04 1.287501e-03 1.422234e-03 
5.475412e-04 2.424872e-03 1.928122e-03 
5.766735e-05 1.253539e-03 7.605598e-04 
-2.020426e-04 8.150554e-04 -4.638302e-04 
-3.130867e-03 -1.965495e-03 1.391203e-03 
-1.072102e-03 2.483485e-04 1.911430e-03 
1.908129e-03 -7.164105e-04 -1.086408e-03 
7.373374e-04 -7.036618e-04 1.711771e-03 
2.279844e-03 2.014453e-04 -6.075549e-04 
-4.966290e-05 4.953850e-04 6.846684e-04 
2.528444e-05 8.021486e-04 1.178990e-03 
-3.695369e-03 -5.205113e-03 -2.835988e-05 
-1.330391e-03 -2.257346e-04 7.597643e-04 
-5.707413e-04 -4.482854e-04 1.898061e-03 
3.335810e-04 7.294893e-04 2.855259e-04 
-1.060838e-03 -2.646164e-03 1.162685e-05 
1.146418e-03 1.862401e-04 -2.192329e-03 
8.555338e-04 -1.618377e-03 -7.025624e-04 
5.779092e-04 -3.036901e-03 1.709199e-03 
-1.040323e-03 8.823559e-04 -1.077100e-03 
-4.085832e-05 1.786157e-03 2.113999e-03 
-3.205764e-04 3.006706e-03 7.757998e-04 
-6.867751e-04 -1.431729e-03 4.505452e-04 
-7.123573e-04 3.720941e-03 3.167306e-04 
2.351326e-04 1.922740e-03 -7.228628e-04 
1.104651e-03 9.775756e-04 -7.707586e-04 
-9.733695e-04 -1.635677e-04 7.376024e-04 
-4.062675e-03 -1.063852e-03 -6.126902e-04 
1.055812e-03 -3.958752e-04 2.078833e-04 
-1.455819e-03 1.176892e-03 -7.040734e-04 
-9.461802e-04 -6.777788e-04 -2.025533e-05 
3.554993e-03 9.345210e-04 1.655475e-04 
1.162668e-03 -1.944244e-04 4.944777e-04 
1.241032e-03 -1.690923e-03 1.037603e-04 
4.686211e-04 -9.176407e-04 -4.560663e-04 
-7.512247e-04 -6.309028e-04 1.186500e-03 
3.269725e-03 1.493647e-03 -8.060120e-04 
-1.616585e-03 -1.800434e-03 1.027532e-03 
6.343025e-04 2.135965e-04 -1.350464e-04 
-7.363353e-04 2.141307e-03 -1.957342e-03 
-4.427967e-04 -1.794495e-04 3.407654e-04 
-1.765688e-03 -4.032873e-03 3.165396e-03 
-1.302690e-03 4.877557e-04 2.112251e-04 
3.633710e-03 -6.332665e-04 -8.707945e-04 
-1.275647e-03 1.563726e-03 -8.193421e-04 
1.024633e-03 -1.789826e-03 -4.115944e-04 
-1.337024e-03 5.602196e-04 7.975651e-05 
-1.999071e-03 -1.119543e-03 -9.414841e-04 
3.583766e-04 1.473881e-03 1.586293e-03 
-1.248880e-03 2.674587e-03 2.394223e-03 
-2.118424e-03 -2.232179e-03 1.474454e-03 
-7.135421e-03 -6.155050e-03 -3.047852e-03 
-2.578412e-03 -8.554883e-04 8.846245e-04 
9.903314e-04 -9.574588e-04 3.118842e-04 
-7.237660e-04 1.092724e-03 9.714777e-04 
-4.816578e-04 -1.520319e-03 5.938513e-04 
5.555088e-04 7.499235e-04 1.070673e-03 
5.652761e-04 1.170294e-03 -1.930066e-03 
4.109219e-03 -2.504774e-03 -1.831474e-03 
-1.053163e-03 6.889868e-04 -1.032501e-03 
-4.160601e-06 -5.641869e-04 1.112418e-03 
-1.063536e-03 -1.245614e-03 -2.524137e-04 
-6.299041e-04 4.334919e-05 5.430639e-04 
1.133585e-03 1.856662e-03 -3.817365e-04 
1.201728e-03 -9.642780e-04 -4.605959e-04 
1.915826e-03 2.125775e-03 -3.062784e-03 
-1.210259e-03 -1.528537e-03 -2.604211e-03 
1.619019e-06 -2.162061e-03 1.379289e-03 
1.516428e-03 1.188356e-03 2.624400e-04 
-1.058385e-03 3.632401e-04 2.662358e-03 
6.611827e-04 1.506333e-03 1.590767e-03 
-1.357625e-03 2.507358e-03 1.156791e-03 
-1.176353e-03 -4.792013e-03 1.907265e-03 
1.942552e-03 -4.284369e-07 -1.669952e-04 
2.582011e-03 -1.099247e-03 -1.432799e-03 
2.314000e-03 2.489439e-03 1.228301e-03 
-5.690077e-04 1.011459e-03 1.044873e-03 
-1.334969e-05 -2.807056e-03 -5.684655e-04 
3.091724e-04 -5.040415e-04 7.073260e-05 
-2.030954e-03 5.910401e-04 1.432999e-03 
2.362195e-03 -1.193698e-03 -1.137367e-03 
-7.489524e-04 -7.672147e-04 1.709652e-03 
-1.106460e-03 4.128128e-04 7.910859e-04 
1.661456e-03 1.562661e-03 2.466297e-03 
3.599919e-03 3.072633e-03 -1.475363e-04 
1.338545e-03 2.811500e-03 5.945521e-04 
-1.411537e-03 -7.520180e-04 8.687508e-04 
4.234979e-04 2.300918e-03 -7.561958e-04 
-3.424368e-03 -1.964121e-03 5.492765e-04 
3.972683e-04 1.117546e-03 -3.104677e-04 
6.806794e-04 -1.361658e-03 -4.768693e-05 
1.289580e-04 -1.065781e-03 4.094049e-04 
6.192915e-04 1.609543e-03 -1.228421e-03 
-1.728858e-03 1.617793e-03 9.914510e-04 
1.284657e-03 2.531450e-03 -5.703396e-04 
8.282394e-04 1.792156e-03 -1.417464e-03 
-3.793897e-03 -5.277196e-03 -2.611482e-03 
2.941949e-03 -1.363824e-03 -7.223912e-04 
4.627820e-04 -4.636051e-04 3.918880e-05 
1.614158e-03 -4.186607e-04 -1.387131e-05 
1.087253e-03 9.805101e-04 1.182227e-03 
5.535989e-04 -6.184005e-04 8.860083e-04 
-3.135044e-05 -1.809186e-05 -5.320086e-04 
2.110605e-03 1.256012e-03 -1.735420e-03 
-5.913523e-04 -2.224549e-04 -3.218086e-04 
-2.679165e-03 7.248995e-04 6.582084e-04 
-2.200962e-03 -1.942201e-03 -1.218271e-03 
1.608367e-03 7.939858e-04 1.712113e-04 
7.824826e-04 -2.301307e-03 -4.133220e-04 
9.662883e-05 -1.539180e-03 -1.218388e-04 
2.406371e-04 1.070340e-03 2.043248e-03 
1.551100e-03 -2.843357e-04 5.654514e-04 
1.362238e-03 -1.574897e-03 -2.485454e-03 
-1.256220e-03 7.062086e-04 -7.516438e-04 
6.071034e-04 1.979567e-03 -2.238373e-03 
-4.216716e-04 5.826888e-04 -9.337445e-04 
-1.528595e-03 -3.066863e-04 1.260831e-03 
-8.027609e-04 -1.877661e-03 -4.529138e-04 
1.683883e-03 9.064953e-04 -1.021836e-03 
-4.753600e-05 4.184827e-04 1.323511e-03 
1.820318e-04 3.866253e-04 2.302829e-05 
5.606160e-04 4.836193e-03 -9.795875e-04 
2.938272e-03 -2.051047e-04 -2.425439e-03 
-3.955799e-04 -2.201596e-04 -1.604601e-03 
6.481163e-04 4.992531e-05 3.775342e-04 
-1.435596e-04 7.737815e-04 7.172678e-04 
-3.890326e-04 5.462924e-04 1.534229e-03 
2.417586e-04 -1.343370e-03 -5.561638e-04 
-2.293923e-03 3.163876e-03 9.559465e-05 
-9.927654e-04 -4.151878e-04 4.124360e-04 
-2.005818e-03 -1.654570e-03 -1.479468e-04 
-1.219273e-03 3.135630e-04 1.488680e-03 
-1.586587e-03 -1.713055e-03 2.485735e-03 
-8.231908e-04 -2.080250e-04 -1.834008e-03 
-1.925752e-03 -3.603310e-03 1.465086e-03 
1.769301e-03 1.825000e-04 -1.841703e-03 
-1.512167e-03 2.432897e-04 4.869568e-05 
-2.577139e-04 -8.023747e-04 -2.044367e-04 
1.948461e-04 -3.123370e-04 4.941494e-04 
-5.281304e-04 -7.133131e-04 1.946517e-03 
7.611113e-04 -1.338294e-03 3.361309e-04 
-1.195596e-03 2.064978e-03 -1.025419e-03 
-1.054450e-03 -1.909197e-03 -1.797604e-03 
-1.183272e-03 1.864526e-04 -7.008055e-06 
-1.274502e-03 -7.618399e-04 2.015830e-03 
-3.799681e-04 7.035763e-04 4.271395e-04 
3.399169e-04 2.461625e-03 -3.817852e-04 
-2.932746e-03 4.309296e-03 -5.329082e-03 
3.350286e-04 -7.583827e-04 1.320945e-04 
1.140144e-03 8.838872e-04 1.255940e-03 
2.154640e-03 1.511562e-03 -1.062780e-03 
-1.940896e-03 -2.511806e-03 9.042416e-04 
-6.198228e-04 2.528061e-04 -7.308744e-04 
-1.948400e-03 9.670712e-04 5.221178e-04 
-6.118751e-04 -3.539403e-04 -1.139916e-04 
-1.676907e-03 1.979871e-03 5.675079e-04 
-2.589983e-04 -1.038870e-04 -2.223612e-03 
-8.355903e-05 1.420627e-03 -1.319685e-03 
-1.774305e-03 -5.722728e-04 -4.567594e-04 
-1.553245e-03 2.515020e-03 -1.194123e-05 
-9.496323e-05 5.407556e-04 -8.609457e-04 
4.588946e-04 3.033502e-04 -9.286141e-04 
-1.733678e-04 -7.245190e-04 3.967946e-04 
3.535146e-04 -4.876957e-04 -2.155340e-04 
2.046777e-03 8.438779e-04 -2.284024e-03 
3.943032e-04 1.583090e-03 3.213223e-04 
-1.103833e-03 -1.638468e-05 2.204767e-04 
-2.744875e-04 1.941540e-03 -2.312242e-04 
-1.672324e-03 -2.148277e-03 1.495270e-03 
1.555789e-03 -1.615087e-03 2.074575e-04 
-1.691392e-03 4.169567e-04 -4.596671e-04 
3.579422e-04 -2.350647e-04 7.086538e-04 
1.416226e-03 -7.680739e-04 -8.866423e-04 
-7.270191e-04 2.626852e-03 -8.980165e-04 
-9.823873e-04 -3.960265e-04 1.749249e-03 
-7.305086e-04 -2.069283e-03 -2.243134e-03 
5.876086e-04 1.094291e-03 -1.512963e-03 
-1.590656e-03 9.391326e-04 1.199272e-03 
-1.111177e-03 6.196443e-04 -1.559616e-03 
6.065435e-04 1.323134e-03 -1.237340e-03 
-2.803190e-03 1.113113e-03 2.135820e-03 
1.352113e-03 -3.235357e-03 3.870043e-03 
-2.036437e-03 1.485108e-04 -9.616380e-04 
-3.764902e-04 -3.821922e-04 4.028155e-04 
1.087235e-03 2.016745e-03 -5.143494e-04 
-1.196182e-03 9.526765e-04 -2.023364e-03 
5.040777e-04 -1.300654e-03 -4.321206e-04 
1.692794e-03 -5.186246e-04 1.200076e-03 
-2.836242e-03 1.470519e-03 1.009567e-03 
-2.808239e-04 5.984540e-04 -1.183264e-03 
-1.954771e-03 1.419643e-03 4.219702e-04 
-1.561966e-04 -5.266767e-04 1.272685e-03 
1.802858e-04 -2.505089e-03 -2.054652e-03 
-1.413000e-03 -1.522948e-04 2.460444e-03 
-3.975403e-04 -6.189081e-04 1.810175e-03 
-3.477058e-04 -9.114674e-04 -1.485964e-03 
1.414451e-03 4.841254e-04 -3.958277e-04 
-9.894878e-04 -2.632089e-05 7.480359e-05 
-1.116724e-03 1.493942e-04 9.335387e-04 
-1.848461e-03 2.572001e-03 -1.668935e-03 
3.186698e-03 -2.747590e-03 -3.968440e-04 
2.260654e-04 7.718665e-05 1.426123e-03 
1.934708e-03 -7.350575e-04 1.349884e-04 
-8.867837e-04 -9.739404e-04 -5.181498e-04 
-6.561534e-04 -2.406655e-03 2.381209e-03 
3.114256e-04 3.067654e-05 -1.101303e-03 
6.512401e-04 3.128355e-03 -3.635121e-04 
-6.816623e-04 1.091107e-04 8.756715e-04 
-1.686414e-04 9.852012e-04 5.588164e-04 
1.527698e-03 -2.671732e-04 -1.873218e-03 
-1.961054e-03 3.573247e-04 2.380385e-03 
-2.308181e-04 1.819407e-03 6.840705e-04 
-2.683274e-03 -7.640627e-04 9.451816e-04 
-1.215811e-03 -1.886187e-03 -1.526317e-04 
1.453579e-03 8.485973e-04 -1.459857e-03 
4.206781e-03 -2.769669e-03 -2.002986e-03 
1.205745e-03 -2.709120e-04 -1.769959e-03 
-1.509910e-03 -2.612564e-03 -2.169446e-04 
-3.267043e-04 2.423764e-03 -2.411404e-03 
-2.807091e-03 9.802059e-05 2.719857e-03 
7.660173e-04 -4.456684e-04 -6.483805e-04 
1.062089e-04 2.450351e-03 -1.133922e-03 
1.000170e-03 -6.765373e-04 -1.093683e-03 
5.518353e-04 9.340374e-04 -1.017415e-03 
-3.005087e-03 -3.468537e-03 -2.952543e-04 
1.049401e-03 9.943758e-04 2.211940e-03 
-2.245931e-03 6.690338e-04 1.468191e-03 
1.277248e-03 -9.850435e-04 -1.250985e-03 
1.480525e-04 6.578148e-04 1.561534e-03 
-3.260809e-04 -1.630809e-03 1.844132e-03 
-9.140134e-04 3.738398e-04 -5.005310e-04 
1.039266e-03 1.522668e-03 -1.691587e-03 
-2.985149e-04 -2.526803e-04 1.490135e-03 
-1.496900e-03 2.162512e-03 -2.158846e-04 
2.292641e-03 1.175098e-03 -5.911552e-05 
-1.079759e-03 2.556008e-03 -1.663402e-03 
-1.219880e-03 -1.522010e-03 -9.252155e-04 
1.070474e-03 -9.028488e-05 -2.530959e-03 
-2.876653e-04 3.445616e-03 -3.220582e-03 
2.610729e-03 -4.634797e-04 -2.097062e-03 
9.489181e-04 -6.345806e-04 8.668480e-04 
7.458702e-04 6.466352e-04 1.053342e-03 
2.133601e-03 5.699638e-04 -9.168430e-04 
9.170841e-04 1.486239e-03 -1.110126e-03 
-1.015605e-03 -7.039229e-05 -2.415925e-04 
1.804519e-04 -4.844592e-04 -5.918820e-04 
3.377514e-04 -4.566982e-03 -1.439593e-03 
1.008969e-03 -1.963015e-03 -2.899334e-03 
1.072865e-03 2.359405e-03 -7.320519e-04 
3.794131e-04 5.682000e-04 -1.114522e-03 
-6.540375e-04 -9.794278e-04 1.293585e-03 
-1.300267e-03 -9.861892e-04 -2.895869e-04 
-1.200827e-03 -3.160313e-03 -1.456607e-03 
-6.679511e-04 -2.153670e-04 5.597299e-04 
-1.861058e-04 1.411429e-03 -6.377706e-05 
-2.801421e-03 -1.028977e-03 3.067714e-03 
1.568686e-04 7.765568e-04 -7.555228e-04 
-4.288350e-04 1.026531e-03 2.363266e-03 
-3.759801e-04 6.146221e-04 -2.355973e-04 
-7.265406e-04 -2.571968e-04 1.897878e-03 
-7.304136e-04 -1.460564e-03 -7.717596e-04 
7.702117e-04 -1.125041e-03 1.326895e-03 
1.387959e-03 1.212356e-03 1.573482e-04 
3.182023e-03 -1.436017e-03 -1.071445e-04 
-9.546661e-05 4.065119e-04 -2.960171e-04 
-2.432726e-03 -2.989847e-04 -1.475753e-04 
1.531465e-03 1.153673e-03 -2.135218e-05 
-9.352214e-04 -7.167826e-04 2.149606e-04 
-5.903831e-04 3.462792e-04 1.204397e-03 
-2.117892e-04 -1.788373e-03 1.311191e-04 
5.577411e-04 -1.657614e-03 4.947646e-04 
-2.646917e-04 3.018158e-03 2.280934e-04 
1.043776e-03 3.920127e-04 -2.083752e-03 
-1.357526e-03 -5.002002e-04 3.493515e-04 
6.672648e-04 8.020032e-05 9.645567e-04 
8.034470e-04 1.879158e-04 8.869267e-04 
1.077256e-03 -1.404020e-03 -2.270020e-03 
9.583607e-04 1.703134e-04 6.976130e-04 
2.061916e-03 3.524148e-04 -2.118151e-03 
-2.332775e-03 -2.230553e-03 1.797927e-03 
1.235754e-04 2.762231e-04 2.137411e-03 
6.043295e-04 1.484138e-03 1.260708e-04 
-1.928484e-03 -1.003037e-03 -4.170603e-04 
-1.388992e-03 -2.787307e-03 -1.854507e-03 
-9.353422e-04 -1.806743e-03 -1.727753e-03 
2.726189e-03 -1.918599e-03 -5.377738e-04 
1.873978e-04 -4.231859e-04 1.127853e-03 
9.132690e-04 9.071139e-04 -1.905476e-03 
1.263151e-03 1.069204e-03 5.734339e-04 
1.220706e-04 -1.230728e-03 -4.560241e-04 
-6.163952e-04 1.400797e-03 2.088791e-03 
7.743998e-04 1.884481e-03 -5.879488e-04 
1.480563e-03 5.880470e-04 -1.006821e-03 
8.212513e-04 -1.387431e-04 -1.126240e-03 
-1.494796e-03 1.086074e-03 -1.056134e-03 
1.456860e-03 5.451955e-04 -2.526028e-03 
4.718406e-04 1.644852e-03 -2.134924e-03 
2.193240e-04 5.427305e-04 -2.236925e-04 
6.177071e-04 -8.343111e-05 -2.885605e-03 
3.223250e-05 3.603420e-04 -1.379258e-03 
-3.713887e-04 -1.785877e-03 -1.188190e-03 
1.094221e-03 -3.685111e-04 -5.268957e-04 
6.339103e-04 1.029617e-04 1.352990e-03 
-3.718732e-04 3.960736e-05 9.553994e-04 
6.686632e-04 1.459558e-03 7.329545e-04 
1.236517e-03 -4.864539e-06 -9.229977e-04 
1.152024e-04 3.157746e-03 -1.909935e-03 
-1.543425e-03 6.373859e-04 5.184441e-04 
-1.766001e-03 1.561323e-03 -9.248714e-04 
1.354373e-05 -7.676515e-04 -1.401968e-03 
-1.191389e-03 -2.964573e-04 1.916545e-03 
2.775433e-04 -9.418942e-04 8.170241e-04 
1.417340e-03 1.547535e-03 1.029017e-03 
-1.520899e-03 5.058274e-04 -7.429094e-05 
-1.471606e-03 -9.390800e-04 1.480900e-03 
1.222473e-03 3.360116e-04 1.679060e-03 
9.695786e-04 -8.888577e-04 -7.123055e-04 
3.769309e-04 -1.114597e-03 3.072016e-03 
-2.438586e-03 -1.819878e-03 5.481898e-04 
-1.990596e-03 1.806792e-03 8.762048e-04 
-1.150968e-03 2.584955e-03 -2.478345e-03 
2.316775e-03 8.216874e-04 1.441861e-03 
6.615940e-04 1.084094e-03 -2.741919e-03 
2.936774e-03 -7.667781e-04 -2.565417e-03 
-1.247349e-04 2.198721e-04 -9.187999e-04 
2.292772e-04 1.255086e-03 -2.508445e-03 
-7.307946e-04 3.126126e-03 -4.441352e-04 
-1.097032e-04 7.541258e-04 2.222067e-04 
1.020107e-03 -9.147091e-05 -9.018714e-04 
3.142778e-03 -2.515097e-04 -3.594888e-03 
-1.971069e-03 -5.755518e-04 1.631974e-03 
-3.668538e-04 2.109045e-03 -6.369936e-04 
7.406543e-04 1.765956e-03 -5.076471e-04 
1.718594e-03 -1.504973e-03 -1.000838e-03 
7.039701e-04 4.132201e-06 -1.761748e-03 
-4.741412e-04 -7.880558e-05 -5.775195e-04 
5.263355e-04 -1.927829e-04 1.030084e-03 
-5.344576e-04 6.079118e-04 1.668260e-03 
3.573990e-04 -3.667912e-03 -8.260486e-04 
2.187627e-03 9.728816e-04 1.042466e-03 
-5.149885e-04 6.941246e-04 -1.293095e-03 
-1.198059e-04 4.163622e-05 -4.105155e-04 
-6.045204e-04 -1.688981e-03 3.070111e-03 
-1.330325e-03 2.891610e-03 -4.078742e-04 
2.845148e-04 -4.265309e-04 1.801464e-03 
-1.785498e-03 2.943088e-04 2.965418e-04 
4.142939e-04 3.792748e-04 -1.170935e-03 
-2.439663e-03 -4.908489e-04 7.848071e-04 
-1.169360e-03 1.181813e-03 1.374377e-03 
8.635180e-04 -5.611015e-04 -5.784165e-04 
1.524240e-03 1.005031e-03 1.189966e-05 
-4.120690e-04 3.948989e-04 8.406525e-04 
5.858858e-05 1.631137e-04 -2.696358e-05 
8.867621e-04 -6.540372e-04 2.631866e-03 
1.116787e-03 -1.369784e-04 7.507142e-04 
-1.559035e-03 -1.531827e-03 1.482914e-03 
1.790803e-04 1.178525e-04 2.073413e-03 
-1.668439e-03 1.874934e-03 -2.741311e-04 
1.392379e-03 1.156909e-04 -8.575712e-04 
1.235834e-03 3.182915e-03 -7.902043e-04 
5.727698e-04 5.238596e-04 1.054444e-03 
-2.582352e-03 -4.223657e-04 1.075222e-03 
-2.702189e-04 2.535466e-04 -1.959963e-04 
1.492611e-03 -1.665530e-03 -1.777171e-04 
-6.715947e-04 -1.074058e-03 1.331473e-03 
-1.265059e-03 -1.190201e-03 2.795054e-03 
-1.256063e-03 -4.869724e-04 1.229967e-03 
-2.780817e-03 -5.451588e-04 2.745409e-03 
3.519799e-04 2.149283e-03 -1.082213e-03 
1.642433e-04 2.253609e-03 -2.046983e-04 
6.204349e-04 -3.253481e-03 -2.572741e-03 
7.738606e-04 -7.529139e-04 -4.017547e-04 
9.939991e-04 -2.294283e-04 -1.863567e-03 
2.334799e-04 3.629325e-04 5.885039e-04 
-1.176823e-03 6.578304e-05 7.264043e-04 
-3.343902e-04 3.463561e-04 2.362731e-03 
1.230690e-03 -1.175954e-03 -1.323298e-03 
-2.068810e-03 -4.004685e-03 3.218882e-03 
3.530748e-04 1.064164e-03 1.518964e-03 
-4.593159e-04 2.510926e-04 2.751152e-03 
-1.039309e-04 7.855618e-04 -1.103590e-03 
2.829610e-04 4.225384e-04 2.812976e-04 
6.686094e-04 1.661917e-03 -4.430775e-04 
-3.028364e-05 -9.902298e-04 5.144220e-04 
-6.436801e-04 6.342164e-04 1.653823e-04 
-7.571489e-04 8.603060e-04 4.624612e-04 
-2.630348e-04 -2.984626e-04 -9.253543e-04 
-9.779951e-05 -1.730167e-04 5.278722e-04 
-2.898792e-04 -3.285339e-04 7.632300e-04 
-2.982247e-03 -1.206808e-03 8.732161e-04 
-1.424062e-03 -9.602723e-04 1.179967e-03 
-9.460343e-04 -1.435481e-04 2.067251e-03 
-7.302514e-04 1.513923e-03 9.448869e-04 
-1.567846e-03 9.536994e-05 2.065355e-03 
-1.126829e-04 9.255757e-04 1.782851e-04 
1.744681e-04 1.989856e-05 4.643343e-04 
-9.877429e-04 1.880723e-03 -2.272342e-03 
-4.368282e-04 1.125858e-03 -7.761460e-04 
-1.783276e-03 1.403607e-04 2.097907e-03 
-1.079755e-03 -8.747259e-06 8.474723e-04 
-2.593991e-04 -1.074000e-03 1.516436e-03 
-1.320473e-03 2.613857e-03 -7.894187e-04 
9.381647e-04 1.289688e-03 3.253553e-04 
-8.075787e-04 -1.252563e-04 1.457401e-04 
-8.237081e-05 5.099021e-04 -2.361320e-04 
-1.065595e-03 4.958381e-04 2.936890e-04 
6.735396e-04 2.757154e-04 1.861028e-03 
1.346450e-03 1.190418e-03 -1.238094e-03 
-3.496985e-04 -8.506593e-04 2.935613e-04 
-2.899891e-03 3.239543e-03 -2.880133e-03 
-7.904611e-04 2.001874e-03 -6.891179e-05 
-1.600956e-03 -5.349931e-04 4.273665e-04 
2.960451e-04 -6.020140e-04 2.185689e-05 
-4.158136e-04 2.178802e-03 -1.401519e-03 
-1.782161e-03 8.245661e-04 -1.189085e-03 
4.514011e-04 1.966608e-03 -1.517875e-03 
1.024118e-03 -1.103900e-04 -1.951295e-04 
8.821480e-06 -1.780252e-04 3.763287e-04 
5.048090e-04 7.795796e-04 -8.171415e-04 
-5.827793e-04 -8.838939e-04 8.319004e-04 
1.739605e-04 -1.631174e-03 -9.434315e-04 
-7.223201e-04 1.029492e-03 -6.463731e-04 
-8.272888e-04 7.720972e-04 -2.610260e-04 
5.391208e-04 -3.170138e-04 -8.427850e-04 
4.628158e-04 1.194650e-03 -1.368943e-03 
1.833396e-05 2.306263e-03 -3.498505e-04 
2.089077e-03 -1.589254e-03 -9.631278e-04 
1.814570e-03 2.368237e-03 -2.465814e-03 
-7.084269e-04 -1.733805e-03 1.264246e-03 
1.409344e-03 6.298434e-04 -1.479128e-03 
8.935804e-04 1.464914e-03 -1.226846e-04 
-3.140437e-03 8.436657e-06 3.740775e-03 
2.402771e-03 1.895729e-03 -8.812027e-04 
1.660512e-03 3.978579e-04 -1.523566e-03 
6.650406e-04 1.352744e-03 -2.053143e-03 
-7.989989e-04 -1.331182e-04 1.851223e-03 
-6.217652e-04 8.916709e-04 6.041133e-04 
6.836682e-04 -2.316233e-04 -7.250890e-04 
1.597849e-03 5.527760e-04 5.342349e-04 
-1.793799e-04 9.223498e-04 -1.568845e-03 
1.503941e-05 -7.259517e-05 9.927078e-04 
-1.052340e-03 1.040208e-03 1.309006e-03 
1.956322e-03 6.133302e-04 -1.511625e-03 
1.852145e-03 9.499680e-04 7.783778e-05 
-1.969738e-03 -3.833453e-03 -9.716252e-04 
6.413382e-04 1.251387e-03 7.967113e-05 
8.276061e-04 6.002692e-04 1.117342e-03 
1.573893e-04 1.733386e-03 1.120367e-03 
8.602028e-04 2.301099e-03 -2.004763e-03 
-1.931780e-03 -6.450244e-04 9.582972e-04 
4.182367e-03 -3.106417e-04 -2.885499e-03 
-2.791504e-04 -5.978533e-05 9.459166e-04 
1.352659e-03 1.642300e-03 -8.843572e-04 
-8.349220e-04 2.679500e-03 6.803866e-04 
-3.283656e-04 7.779129e-04 -9.914814e-04 
-4.096950e-04 -6.241706e-04 -7.993826e-04 
2.548027e-03 1.455016e-03 -2.031983e-03 
-8.408169e-04 -7.721591e-05 7.253929e-04 
1.595318e-03 1.971127e-03 -2.034900e-03 
-1.082183e-03 3.440807e-04 6.862906e-04 
-3.078071e-05 -8.749435e-04 -7.394812e-04 
2.151220e-04 -4.149873e-04 1.105864e-03 
2.546534e-03 -1.781828e-04 -3.988775e-04 
-8.224267e-04 1.983737e-03 1.401707e-03 
1.978018e-03 -1.629590e-04 -5.037905e-05 
-1.054409e-03 -1.070354e-03 1.027724e-03 
3.512687e-04 -1.823014e-03 9.072630e-04 
7.750103e-04 5.448444e-04 -5.787634e-04 
9.683042e-04 -7.762016e-05 -3.086610e-04 
8.145525e-04 7.929372e-04 2.919647e-03 
8.887911e-04 3.197589e-04 -6.352843e-04 
1.959659e-03 -3.736230e-04 -1.331916e-03 
8.695690e-04 -4.021334e-04 -1.342753e-05 
4.731470e-04 2.579095e-04 1.365517e-03 
1.089007e-03 1.303882e-03 2.174090e-03 
-4.080012e-04 2.781930e-04 2.116530e-04 
7.010198e-04 4.686653e-04 2.299410e-04 
-2.002396e-04 1.741598e-03 -3.253630e-04 
-5.766074e-04 -2.703951e-04 -3.767063e-04 
-1.017776e-03 -1.613383e-03 9.525780e-04 
-9.225122e-04 4.782236e-05 2.972919e-03 
-1.483297e-03 -7.368919e-04 -5.359604e-04 
-4.205215e-04 5.049001e-04 7.658544e-04 
1.482634e-03 2.521860e-04 -4.151363e-03 
1.282630e-03 -1.349712e-03 1.330721e-03 
5.353278e-04 -1.622948e-03 6.116520e-04 
-1.742525e-03 -2.576898e-03 -5.959020e-04 
-5.739056e-04 -1.610429e-03 1.945729e-03 
-1.290253e-03 2.430215e-03 -2.191172e-03 
1.201166e-04 -1.616242e-03 -2.980628e-04 
1.570742e-04 -5.058657e-04 5.039249e-04 
-1.228305e-03 5.815192e-04 4.336800e-04 
1.570506e-03 1.171894e-03 -1.403251e-03 
-9.102387e-04 -6.640018e-04 1.481261e-03 
1.030152e-03 1.310005e-03 -1.677551e-03 
-2.920332e-04 -6.331240e-04 -2.789411e-04 
-4.120720e-03 -4.436627e-03 -2.420518e-04 
-2.654557e-03 -6.321999e-04 1.298814e-03 
1.084527e-03 1.498529e-03 4.651795e-04 
8.879432e-04 1.582298e-03 -8.439357e-04 
-9.115096e-04 4.580300e-04 9.516119e-04 
6.165929e-04 -1.066430e-03 -4.342940e-06 
2.870138e-05 2.278145e-03 -7.468839e-04 
1.604413e-03 -7.624894e-05 6.764820e-04 
-1.399249e-03 -3.611359e-04 8.132121e-04 
2.317998e-03 4.847745e-04 -2.378584e-03 
1.656958e-03 5.782096e-04 -5.528103e-04 
-3.757623e-04 1.211200e-03 4.841084e-04 
2.631953e-03 -4.210975e-03 -8.185708e-05 
2.146859e-03 -3.679956e-04 -2.094834e-04 
5.548125e-04 2.039059e-03 -9.208424e-04 
6.644866e-04 -1.236148e-03 1.205448e-03 
-1.634901e-03 -9.519626e-04 3.449795e-03 
-1.363508e-03 -1.045739e-03 1.883382e-03 
-5.646606e-04 1.879054e-03 8.747933e-04 
-1.493697e-03 -2.476974e-03 -1.718093e-03 
-7.996009e-04 -3.204308e-04 2.196854e-03 
-2.684001e-04 -2.023486e-03 -1.057393e-03 
9.797003e-05 2.797496e-04 2.656734e-04 
-6.662135e-04 9.962383e-04 -7.767066e-04 
3.382289e-04 2.717586e-04 -1.473996e-04 
-4.735697e-05 7.217318e-04 -1.409482e-03 
-1.252762e-03 -1.852248e-03 1.545550e-03 
-1.405868e-03 -1.162623e-03 7.722715e-04 
1.628510e-04 3.080976e-03 -1.236790e-04 
-9.254488e-05 6.664045e-04 -1.272055e-03 
-2.216792e-03 -2.994089e-03 2.507852e-03 
-1.775661e-03 -2.384990e-03 2.915189e-03 
1.057876e-03 -9.592369e-04 -2.515803e-03 
-3.292134e-04 -6.563491e-04 -8.116750e-05 
2.531863e-03 -4.519382e-04 -2.271484e-03 
1.330124e-03 3.432553e-03 3.354539e-04 
-1.492388e-03 -4.314555e-04 -6.716602e-04 
-2.410445e-04 2.981479e-03 -9.471152e-04 
1.059935e-03 -1.767357e-05 -9.360467e-04 
-5.030984e-04 -8.313914e-04 1.246843e-03 
1.928961e-03 -3.902991e-03 4.795085e-04 
1.127203e-03 -3.383313e-04 -1.562596e-05 
-3.748744e-03 -1.118091e-03 -6.684339e-04 
3.065031e-04 1.843428e-03 -1.036765e-04 
7.530386e-05 -2.097426e-03 -7.464124e-05 
1.292956e-03 3.346548e-04 -1.026067e-03 
-5.069354e-04 -1.524803e-03 5.839500e-04 
-4.456198e-04 -3.150579e-05 1.005021e-03 
-2.909029e-03 -2.932664e-04 8.024586e-04 
-2.271217e-04 3.049331e-03 -7.486042e-04 
2.302315e-04 -1.067903e-04 1.028321e-03 
1.434512e-04 8.887172e-04 -6.172569e-04 
7.747318e-04 -8.005563e-05 -3.967964e-04 
-6.850545e-04 1.433828e-04 5.569962e-05 
2.616404e-05 1.021226e-03 -3.334274e-04 
6.190665e-05 2.800076e-04 7.871165e-04 
-5.377580e-04 -2.441268e-03 -6.088965e-04 
8.092618e-04 1.936054e-03 4.683802e-04 
1.081750e-03 -4.158782e-04 -4.489831e-04 
2.081972e-03 2.019523e-03 4.089229e-05 
-1.432353e-03 5.084968e-04 2.701746e-03 
2.602586e-04 1.227323e-03 1.733527e-03 
-1.392416e-03 -6.486899e-04 4.983335e-05 
-1.194628e-03 -2.756338e-03 9.957272e-04 
-1.518850e-03 -3.555429e-03 8.154780e-04 
2.184201e-03 3.923639e-05 -3.756813e-03 
-9.561469e-04 3.858253e-04 1.131699e-03 
3.202229e-03 -7.796403e-05 -1.126004e-03 
-2.134718e-03 1.249704e-03 -2.979011e-04 
-3.002125e-04 -3.452199e-04 1.284292e-03 
-5.710564e-04 -7.946284e-04 4.617580e-04 
1.294666e-04 -1.330420e-03 1.001258e-03 
1.154533e-03 1.751657e-04 6.965645e-04 
4.689612e-04 3.454851e-03 -4.474809e-04 
2.253506e-03 1.386714e-05 -8.694774e-04 
-1.757319e-04 -1.156149e-03 -4.095286e-04 
1.040555e-03 7.109935e-04 -1.050952e-03 
-2.716649e-03 -3.546801e-04 1.935851e-03 
3.225988e-03 7.128137e-04 2.420935e-04 
-4.597451e-04 4.022883e-04 -4.629304e-04 
2.559450e-04 1.206533e-03 -2.689160e-04 
-1.368064e-03 -1.432528e-03 5.284033e-04 
-2.547209e-03 -2.662453e-03 -5.909536e-03 
5.948846e-04 2.084090e-03 -1.308834e-03 
2.389207e-03 -9.041058e-04 -1.823246e-03 
6.258744e-04 8.951686e-04 -1.039797e-03 
3.442695e-04 -1.505042e-03 -8.020049e-04 
-5.803614e-04 1.476819e-03 7.365101e-05 
-4.163284e-04 -2.956355e-04 1.089053e-03 
2.697152e-03 1.065258e-03 1.395264e-03 
-3.822604e-04 -1.204409e-03 2.579666e-04 
6.400776e-04 1.592187e-03 -2.361363e-04 
-7.670238e-06 3.985635e-06 2.436722e-05 
-6.237727e-04 -2.171687e-03 3.967968e-04 
5.235006e-04 -1.707081e-03 -2.705431e-03 
1.430574e-03 -2.113629e-04 -7.998343e-04 
7.308471e-04 -1.853932e-03 -1.301645e-03 
-5.132938e-04 -1.587542e-03 -8.474809e-04 
-4.849562e-04 6.137934e-04 1.643927e-03 
-8.420894e-04 -3.935001e-05 1.602776e-03 
1.089291e-03 -1.731334e-03 -1.975329e-04 
-2.841483e-04 1.703847e-03 -2.764231e-04 
6.688648e-04 -1.342564e-03 1.041244e-03 
1.711459e-03 5.886225e-04 -7.132353e-04 
5.613216e-04 5.613609e-04 1.649706e-03 
7.387283e-04 1.279527e-03 -4.938177e-05 
7.625327e-04 -2.391380e-04 6.118209e-04 
-1.726372e-04 -1.515981e-04 -5.279362e-04 
1.087050e-03 -4.946410e-05 3.898471e-03 
5.154783e-04 -3.370299e-03 1.206706e-03 
-3.525495e-04 -9.072198e-06 2.044758e-04 
-2.486712e-03 3.184823e-04 8.372000e-04 
-1.303937e-03 -2.304008e-03 9.678415e-05 
2.058855e-03 4.324591e-04 -2.380448e-03 
7.277594e-04 2.482187e-03 -2.713756e-03 
-2.285787e-04 1.622442e-03 -1.244414e-03 
6.880156e-04 -5.973527e-04 -8.664154e-04 
-4.275689e-05 2.208938e-03 -1.221624e-03 
7.028473e-04 1.092750e-03 -1.546435e-03 
-1.907472e-03 1.143461e-03 8.442415e-04 
-8.351625e-04 -9.426863e-05 1.221761e-03 
-1.906026e-03 -1.832500e-04 -8.994730e-04 
-1.739170e-04 2.085494e-03 2.573723e-04 
2.296651e-03 3.927491e-04 -2.593349e-04 
3.472641e-04 2.816840e-03 -8.246914e-04 
2.250423e-04 1.815611e-03 2.146010e-04 
-1.455903e-03 2.453014e-03 -2.732275e-04 
-1.515829e-03 9.769153e-04 -3.359645e-03 
-1.404307e-03 6.636069e-04 5.613903e-04 
6.314049e-05 8.498974e-04 -7.710610e-04 
1.345607e-04 6.598493e-04 1.014973e-03 
-2.196678e-03 1.602209e-03 1.235379e-03 
6.624151e-04 3.473850e-05 7.165877e-04 
-1.809160e-03 -8.466792e-04 2.569548e-03 
3.191145e-04 2.682302e-03 -7.407642e-05 
-2.643902e-03 -2.597555e-03 -6.160900e-04 
-2.899816e-04 -1.655382e-03 -7.128694e-04 
-7.454406e-04 2.063258e-03 5.940517e-04 
-3.058831e-02 -3.024581e-02 -1.062298e-02 
